memory_initialization_radix = 16;
memory_initialization_vector =
FC,
30,
28,
FD,
FD,
00,
0F,
0B,
FA,
C5,
14,
03,
37,
F6,
0C,
EB,
E5,
F0,
0B,
26,
1C,
26,
2C,
FD,
ED,
F7,
FB,
FE,
F1,
FE,
F8,
1A,
05,
EB,
EB,
07,
04,
FC,
0E,
07,
22,
1C,
22,
F8,
2B,
DE,
0F,
D2,
43,
0F,
F9,
FA,
0C,
0A,
1B,
01,
D7,
E8,
FC,
FA,
0E,
F6,
DA,
0B,
FA,
0F,
27,
FC,
04,
FB,
15,
FA,
E3,
0F,
EB,
04,
36,
2A,
DB,
38,
BC,
C8,
07,
0B,
FE,
12,
EE,
00,
F0,
1B,
03,
05,
F5,
03,
03,
02,
E7,
D9,
EC,
00,
01,
0C,
00,
FF,
46,
0D,
EF,
F7,
10,
F7,
1D,
07,
EF,
E2,
03,
EB,
14,
19,
3E,
FE,
EC,
16,
04,
00,
FA,
FF,
CF,
EE,
02,
23,
EB,
F6,
01,
EC,
F8,
EA,
EB,
1E,
02,
FF,
3A,
EC,
DF,
1E,
EA,
DB,
0A,
C8,
F8,
17,
2C,
FE,
FC,
D9,
FF,
FD,
18,
00,
09,
EC,
21,
27,
0E,
00,
FE,
E7,
EE,
F8,
C8,
CC,
F3,
03,
2A,
04,
F6,
00,
F5,
D3,
14,
22,
D1,
17,
FA,
FE,
EA,
D3,
01,
02,
10,
00,
2D,
23,
15,
F9,
26,
F9,
01,
08,
05,
E0,
F5,
D8,
28,
04,
60,
13,
FC,
18,
D9,
D9,
2A,
13,
EF,
19,
1C,
01,
40,
E9,
FE,
01,
12,
01,
12,
13,
DA,
0D,
44,
00,
00,
DB,
0E,
07,
E6,
1D,
FD,
02,
DE,
FE,
09,
FA,
F1,
C6,
E7,
17,
42,
26,
D2,
FA,
E6,
D3,
FE,
FE,
03,
FE,
FD,
C6,
F9,
E1,
1D,
03,
01,
1B,
D6,
0B,
08,
F1,
07,
00,
0D,
23,
E2,
FF,
F3,
DE,
10,
E8,
E4,
07,
1A,
02,
31,
23,
01,
FF,
0F,
FF,
21,
1B,
0C,
CD,
FE,
03,
FC,
E8,
DB,
F1,
D7,
10,
0F,
0D,
32,
1C,
10,
1C,
12,
01,
FD,
FA,
D2,
12,
29,
02,
F4,
E2,
04,
FF,
F8,
FB,
D5,
F9,
CC,
0D,
EA,
FB,
05,
01,
05,
06,
E8,
26,
20,
F4,
C9,
27,
2D,
FE,
F5,
DB,
21,
D5,
2A,
C6,
10,
F8,
D2,
29,
08,
F6,
F8,
FB,
D3,
0B,
DD,
05,
CE,
03,
05,
3E,
15,
CC,
F3,
EF,
09,
FC,
26,
0B,
EC,
04,
EC,
DC,
F6,
19,
FA,
E9,
0D,
05,
07,
D7,
FF,
FE,
00,
04,
FC,
E3,
01,
16,
05,
02,
01,
11,
0E,
00,
B5,
03,
F7,
FE,
2E,
03,
04,
D8,
19,
EC,
07,
0B,
FE,
03,
FF,
FB,
F4,
E6,
FF,
00,
00,
00,
FE,
F4,
0C,
F7,
1D,
FA,
00,
F6,
FB,
16,
F2,
EC,
E3,
00,
46,
05,
F1,
D4,
1D,
F5,
F3,
15,
F1,
0B,
07,
06,
34,
11,
03,
05,
15,
05,
F0,
02,
E7,
02,
EE,
00,
00,
0E,
0B,
EE,
EE,
11,
F6,
03,
24,
29,
E7,
FD,
EF,
2B,
0D,
08,
0A,
F7,
44,
01,
EB,
E9,
00,
FC,
FA,
FF,
F0,
F4,
EC,
E3,
09,
02,
02,
31,
EB,
F6,
19,
F9,
16,
FF,
5F,
00,
19,
02,
FD,
FD,
06,
0F,
FF,
1D,
55,
FE,
06,
EB,
01,
02,
D6,
03,
E3,
03,
35,
F1,
FF,
02,
07,
20,
0A,
F7,
D5,
28,
F6,
F9,
D6,
EF,
EC,
F8,
F3,
BF,
F2,
FA,
F3,
0A,
17,
FB,
F5,
F0,
02,
FB,
12,
F9,
3A,
F0,
F6,
10,
21,
05,
04,
E9,
D1,
13,
07,
13,
12,
FC,
E8,
E1,
1F,
10,
DC,
E7,
1B,
FC,
F7,
14,
FA,
FD,
FB,
04,
FC,
02,
EC,
05,
1F,
F7,
F8,
F1,
C1,
FB,
F7,
E1,
0C,
3B,
FB,
0F,
15,
03,
BF,
22,
E6,
E8,
EC,
E4,
13,
01,
2D,
22,
26,
08,
FB,
12,
F7,
FF,
EB,
08,
EF,
0A,
0C,
37,
DF,
03,
02,
01,
1A,
E8,
2E,
FF,
E6,
07,
FA,
F9,
11,
F8,
F9,
17,
10,
E9,
0E,
FC,
11,
00,
1D,
ED,
05,
03,
FA,
FF,
38,
04,
27,
14,
F4,
FC,
01,
DD,
1C,
EC,
F1,
02,
F6,
03,
CE,
F4,
27,
17,
26,
21,
D8,
E7,
19,
E0,
CF,
FF,
E7,
18,
04,
FF,
12,
FD,
17,
F9,
16,
F2,
F5,
F6,
02,
F8,
02,
EA,
25,
DC,
FC,
06,
F6,
0D,
07,
44,
3E,
0E,
F4,
1B,
37,
37,
3C,
F8,
FD,
D3,
FA,
05,
DD,
00,
E2,
FB,
1D,
D0,
FC,
FD,
FC,
E5,
E6,
DB,
08,
48,
AD,
0B,
0F,
14,
0C,
EC,
01,
F9,
D7,
DF,
E7,
E6,
01,
FA,
E9,
13,
06,
FE,
16,
09,
16,
F3,
F3,
16,
F2,
06,
F7,
EB,
BA,
D7,
23,
F5,
18,
06,
15,
D9,
FF,
24,
3D,
E3,
3B,
E9,
11,
BF,
34,
FF,
EC,
F4,
04,
05,
FC,
FF,
EA,
FB,
2B,
F9,
06,
FC,
FF,
05,
E1,
DD,
37,
CB,
17,
FD,
09,
02,
22,
05,
CC,
F6,
10,
FB,
FB,
18,
0A,
02,
15,
D2,
04,
FF,
0A,
01,
F9,
FC,
F4,
0B,
36,
FD,
FB,
ED,
08,
3F,
05,
DC,
06,
03,
53,
0D,
19,
FE,
19,
07,
3B,
0C,
14,
20,
25,
FE,
22,
27,
F9,
FD,
10,
FE,
09,
D4,
09,
E5,
FB,
FA,
FB,
33,
13,
0A,
DC,
E6,
17,
FF,
F7,
EC,
1B,
0B,
2D,
15,
20,
2B,
FE,
05,
09,
02,
17,
EF,
02,
FD,
ED,
FD,
E3,
F3,
D1,
B8,
16,
F9,
03,
34,
F0,
F7,
07,
F7,
F0,
02,
ED,
0A,
FA,
00,
34,
FE,
17,
03,
0A,
DA,
16,
FC,
05,
0C,
03,
04,
CF,
01,
FD,
FB,
FD,
D1,
E8,
FA,
FF,
05,
1A,
32,
41,
14,
22,
03,
2B,
F8,
EE,
22,
CD,
0A,
16,
E6,
F7,
04,
1A,
FD,
E8,
D0,
02,
FF,
E9,
FE,
21,
0D,
B5,
EF,
0C,
06,
FE,
37,
20,
F1,
F9,
08,
FF,
FE,
ED,
14,
C3,
D8,
2D,
E4,
16,
00,
19,
2B,
FD,
00,
10,
17,
03,
02,
F4,
FF,
AD,
2C,
07,
DE,
DC,
FE,
FE,
EA,
EF,
D1,
22,
D9,
E8,
FD,
1A,
2B,
20,
FB,
04,
F9,
1D,
F6,
FD,
0F,
26,
03,
08,
13,
02,
00,
00,
00,
54,
40,
28,
12,
28,
FD,
FF,
E6,
CE,
EA,
DF,
E2,
0C,
03,
EC,
F7,
20,
05,
FD,
0F,
00,
0A,
DF,
F8,
D3,
00,
FD,
E0,
00,
FE,
13,
01,
16,
08;
